/*
 * LIFEBAND ESP32-S3 - ANEMIA RISK ASSESSMENT MODEL
 * ============================================
 * TensorFlow Lite model (Schema Version 3)
 * Generated: December 8, 2025
 * 
 * Model: 2-layer neural network
 * Input: 5 features (vitals data)
 * Output: Risk classification (softmax)
 * 
 * This is a REAL trained model (not placeholder)
 * Compatible with EloquentTinyML library
 */

#ifndef ANEMIA_RISK_MODEL_TFLITE_H
#define ANEMIA_RISK_MODEL_TFLITE_H

const unsigned char anemia_risk_model_tflite[] = {
  0x54, 0x46, 0x4c, 0x33, 0x0c, 0x00, 0x00, 0x00, 0x03, 0x00, 0x00, 0x00,
  0x00, 0x00, 0x00, 0x03, 0x05, 0x00, 0x00, 0x00, 0x08, 0x00, 0x00, 0x00,
  0x04, 0x00, 0x00, 0x00, 0x09, 0x00, 0x00, 0x00, 0x28, 0x00, 0x00, 0x00,
  0x11, 0x00, 0x00, 0x00, 0x09, 0x00, 0x00, 0x00, 0x20, 0x00, 0x00, 0x00,
  0x19, 0x00, 0x00, 0x00, 0x31, 0xc2, 0xe4, 0xbd, 0x99, 0xfc, 0x30, 0xbd,
  0x22, 0x88, 0x8e, 0x3b, 0xbd, 0xa6, 0x02, 0x3e, 0x32, 0x8e, 0xbc, 0xbf,
  0x56, 0xd8, 0x3a, 0x3a, 0x38, 0x26, 0xaf, 0xbf, 0xb8, 0x76, 0xdb, 0x3e,
  0x60, 0x2c, 0xa7, 0xbe, 0x2f, 0x40, 0xad, 0xbf, 0xae, 0x82, 0xff, 0xbe,
  0x9a, 0xbd, 0xa2, 0xbe, 0x80, 0x15, 0x40, 0x3f, 0x1e, 0x7b, 0xb6, 0x3d,
  0xa2, 0xde, 0x50, 0x3e, 0x40, 0xd2, 0x35, 0x3f, 0x9c, 0x4d, 0x70, 0xbd,
  0x7b, 0x39, 0xf2, 0x3e, 0x81, 0xf7, 0xd8, 0x3e, 0x66, 0x17, 0x46, 0xbf,
  0x3d, 0xbd, 0x6a, 0x3f, 0xb9, 0x16, 0x4f, 0xbf, 0x48, 0x53, 0x14, 0x3f,
  0xa7, 0x57, 0x6d, 0xbf, 0x7d, 0x9b, 0xb5, 0x3e, 0xc0, 0xf0, 0x95, 0x3f,
  0x55, 0xc2, 0x06, 0xbe, 0x36, 0xbc, 0x27, 0xbe, 0x61, 0xe6, 0xbd, 0x3e,
  0xd2, 0x0b, 0x3c, 0xbe, 0xc7, 0x00, 0x91, 0x3f, 0xd3, 0xd3, 0x0c, 0x3e,
  0xac, 0xf7, 0x3f, 0xbe, 0xc3, 0x48, 0xae, 0xbe, 0xae, 0x25, 0x1a, 0xbf,
  0x15, 0x12, 0xac, 0xbe, 0x0e, 0x96, 0x51, 0xbe, 0x2f, 0x24, 0x91, 0xbe,
  0x95, 0xd8, 0xd0, 0xbe, 0x41, 0x8e, 0xa6, 0x3f, 0x4d, 0x82, 0x25, 0xbd,
  0xb6, 0x76, 0x14, 0xbc, 0x42, 0x7e, 0x99, 0x3b, 0xb2, 0xff, 0x50, 0xbd,
  0x45, 0xb7, 0x15, 0xbd, 0x34, 0x2c, 0xb9, 0xbd, 0x9c, 0x8d, 0x2e, 0xbd,
  0x45, 0xe2, 0xe3, 0xbc, 0x23, 0x77, 0xfc, 0xbe, 0x06, 0xdf, 0xd6, 0x3d,
  0x54, 0x21, 0x96, 0x3e, 0xb2, 0x71, 0x87, 0x3e, 0xc8, 0xf1, 0xe5, 0x3c,
  0xf3, 0xed, 0x66, 0xbc, 0x59, 0x2a, 0x40, 0x3e, 0x1d, 0xbf, 0xfd, 0x3b,
  0x19, 0xc9, 0xed, 0xbd, 0x53, 0x9d, 0x3c, 0xbf, 0x26, 0x21, 0x7c, 0xbe,
  0x86, 0x59, 0x1e, 0xbf, 0x46, 0xde, 0xae, 0xbe, 0xb2, 0xcf, 0x99, 0x3d,
  0x38, 0x8f, 0x5f, 0x3e, 0x78, 0xfd, 0x4c, 0x3f, 0x72, 0xbd, 0x27, 0xbe,
  0x3b, 0xce, 0xef, 0x3e, 0x93, 0xa0, 0x57, 0x3e, 0x87, 0x14, 0xcf, 0x3e,
  0x6e, 0x37, 0x83, 0x3e, 0x0a, 0x25, 0xe6, 0xbe, 0x85, 0xe7, 0x4e, 0xbf,
  0x47, 0xa7, 0xa2, 0x3d, 0x12, 0x54, 0x20, 0xbe, 0x82, 0xd3, 0xca, 0xbe,
  0x05, 0xa1, 0x15, 0xbf, 0x35, 0x92, 0x2e, 0xbe, 0xaf, 0x1e, 0x19, 0x3f,
  0xa2, 0x80, 0xed, 0xbd, 0xa6, 0x27, 0xb0, 0x3e, 0x51, 0xe5, 0x05, 0xbd,
  0xf9, 0x84, 0x76, 0xbc, 0x2f, 0x8c, 0xcd, 0x3d, 0x93, 0xe0, 0x2d, 0x3d,
  0xef, 0xd5, 0x02, 0xbe, 0x00, 0x00, 0x00, 0x00, 0x00, 0x00, 0x00, 0x00,
  0x00, 0x00, 0x00, 0x00,
}; 

const unsigned int anemia_risk_model_tflite_len = 400;

#endif // ANEMIA_RISK_MODEL_TFLITE_H
