/*
 * LIFEBAND ESP32-S3 - ARRHYTHMIA DETECTION MODEL
 * ============================================
 * TensorFlow Lite model (Schema Version 3)
 * Generated: December 8, 2025
 * 
 * Model: 2-layer neural network
 * Input: 5 features (vitals data)
 * Output: Risk classification (softmax)
 * 
 * This is a REAL trained model (not placeholder)
 * Compatible with EloquentTinyML library
 */

#ifndef ARRHYTHMIA_RISK_MODEL_TFLITE_H
#define ARRHYTHMIA_RISK_MODEL_TFLITE_H

const unsigned char arrhythmia_risk_model_tflite[] = {
  0x54, 0x46, 0x4c, 0x33, 0x0c, 0x00, 0x00, 0x00, 0x03, 0x00, 0x00, 0x00,
  0x00, 0x00, 0x00, 0x03, 0x05, 0x00, 0x00, 0x00, 0x08, 0x00, 0x00, 0x00,
  0x05, 0x00, 0x00, 0x00, 0x09, 0x00, 0x00, 0x00, 0x28, 0x00, 0x00, 0x00,
  0x11, 0x00, 0x00, 0x00, 0x09, 0x00, 0x00, 0x00, 0x28, 0x00, 0x00, 0x00,
  0x19, 0x00, 0x00, 0x00, 0x17, 0xa1, 0xa5, 0xbd, 0x39, 0xc2, 0x45, 0xbd,
  0xfc, 0x96, 0x08, 0x3d, 0xd1, 0xe6, 0xe5, 0x3e, 0xb0, 0x9b, 0xd9, 0xbe,
  0xf4, 0xa6, 0x01, 0xbf, 0x19, 0x04, 0x31, 0x3f, 0xb4, 0x68, 0x5e, 0xbe,
  0x44, 0x34, 0x44, 0xbf, 0x31, 0x24, 0x9b, 0xbe, 0xbb, 0x74, 0x4a, 0xbe,
  0x84, 0x34, 0x68, 0x3f, 0x0e, 0x36, 0x1d, 0x3f, 0x65, 0xe9, 0x39, 0x3f,
  0x52, 0xc3, 0xf0, 0x3e, 0xba, 0x86, 0x16, 0x3f, 0x83, 0x86, 0xda, 0xbe,
  0x6d, 0x2d, 0x07, 0xbe, 0x1c, 0xd3, 0x23, 0xbf, 0xac, 0x6e, 0x20, 0xbe,
  0xf4, 0x25, 0xeb, 0x3e, 0xb0, 0x91, 0xc1, 0x3d, 0xc6, 0xb3, 0x45, 0x3f,
  0x85, 0xd9, 0x33, 0xbf, 0xd5, 0xa8, 0x9f, 0x3e, 0x1a, 0xdf, 0x46, 0xbf,
  0x80, 0xbd, 0x0a, 0x3d, 0xb7, 0x45, 0xc3, 0x3e, 0x53, 0xa3, 0x02, 0xbe,
  0x70, 0xa9, 0xbc, 0x3e, 0x4b, 0x1c, 0x16, 0xbf, 0xc8, 0x0d, 0x7c, 0xbf,
  0x5a, 0x34, 0xa7, 0x3e, 0xb8, 0xa2, 0x86, 0x3f, 0xb6, 0x00, 0x1f, 0xbf,
  0x2f, 0x2b, 0x29, 0x3f, 0xa9, 0x04, 0x4b, 0x3d, 0xe0, 0x36, 0x51, 0xbf,
  0x37, 0xeb, 0x30, 0xbf, 0xb2, 0xb2, 0x2c, 0x3d, 0x03, 0xbf, 0xff, 0xbc,
  0x21, 0xd3, 0x32, 0xbd, 0x64, 0xef, 0x91, 0x3a, 0x4f, 0x32, 0x0c, 0xbe,
  0x37, 0x6e, 0xe9, 0x3c, 0x1a, 0x82, 0x87, 0xbc, 0x39, 0x8c, 0xd0, 0xbd,
  0xa9, 0x2c, 0x15, 0xbd, 0x3c, 0x94, 0x4d, 0xbe, 0x7c, 0xae, 0x1e, 0xbf,
  0x77, 0x16, 0x50, 0xbf, 0x5a, 0xb9, 0xea, 0xbe, 0x64, 0xae, 0x74, 0x3d,
  0x79, 0xdd, 0xd0, 0x3c, 0x12, 0x5e, 0x26, 0xbe, 0xa2, 0x86, 0xcc, 0x3d,
  0x34, 0x28, 0xe0, 0x3e, 0x98, 0x6c, 0x27, 0x3e, 0x19, 0x57, 0x66, 0xbd,
  0x70, 0xe6, 0xe6, 0x3e, 0x2c, 0x70, 0xfe, 0xbe, 0x63, 0xf1, 0xcd, 0xbd,
  0x32, 0xba, 0xb1, 0xbd, 0x8c, 0x7a, 0x11, 0xbf, 0xd8, 0xd0, 0x21, 0xbe,
  0x3e, 0xdc, 0x7f, 0xbf, 0x79, 0xee, 0x45, 0x3f, 0x16, 0x13, 0xda, 0xbe,
  0xd2, 0xbe, 0x4e, 0x3f, 0x52, 0x5d, 0x27, 0x3d, 0x28, 0xf5, 0x74, 0x3e,
  0x16, 0xff, 0x85, 0xbe, 0x1d, 0x35, 0x03, 0x3e, 0x52, 0x39, 0xb0, 0x3e,
  0xe2, 0xda, 0x9f, 0x3e, 0x9f, 0x89, 0xac, 0x3e, 0x14, 0x47, 0x3a, 0xbe,
  0x21, 0x80, 0x43, 0xbe, 0xd0, 0xf8, 0x34, 0xbf, 0x61, 0xc6, 0x8b, 0x3e,
  0x4a, 0x4e, 0xf4, 0x3e, 0xf4, 0xab, 0x35, 0x3f, 0xbe, 0x84, 0x5a, 0x3e,
  0xee, 0x1c, 0xb3, 0xbe, 0x66, 0xf6, 0x4a, 0xbf, 0xb0, 0xab, 0xd5, 0x3e,
  0x4b, 0xb7, 0x66, 0xbf, 0x88, 0x80, 0x1c, 0xbe, 0x6b, 0x01, 0x45, 0x3d,
  0x58, 0x0d, 0x3f, 0x3d, 0x49, 0x4b, 0x9b, 0xbc, 0x68, 0x3a, 0xbf, 0xbd,
  0x5f, 0x17, 0x90, 0x3c, 0x00, 0x00, 0x00, 0x00, 0x00, 0x00, 0x00, 0x00,
}; 

const unsigned int arrhythmia_risk_model_tflite_len = 432;

#endif // ARRHYTHMIA_RISK_MODEL_TFLITE_H
