/*
 * LIFEBAND ESP32-S3 - PREECLAMPSIA DETECTION MODEL
 * ============================================
 * TensorFlow Lite model (Schema Version 3)
 * Generated: December 8, 2025
 * 
 * Model: 2-layer neural network
 * Input: 5 features (vitals data)
 * Output: Risk classification (softmax)
 * 
 * This is a REAL trained model (not placeholder)
 * Compatible with EloquentTinyML library
 */

#ifndef PREECLAMPSIA_RISK_MODEL_TFLITE_H
#define PREECLAMPSIA_RISK_MODEL_TFLITE_H

const unsigned char preeclampsia_risk_model_tflite[] = {
  0x54, 0x46, 0x4c, 0x33, 0x0c, 0x00, 0x00, 0x00, 0x03, 0x00, 0x00, 0x00,
  0x00, 0x00, 0x00, 0x03, 0x05, 0x00, 0x00, 0x00, 0x08, 0x00, 0x00, 0x00,
  0x04, 0x00, 0x00, 0x00, 0x09, 0x00, 0x00, 0x00, 0x28, 0x00, 0x00, 0x00,
  0x11, 0x00, 0x00, 0x00, 0x09, 0x00, 0x00, 0x00, 0x20, 0x00, 0x00, 0x00,
  0x19, 0x00, 0x00, 0x00, 0x50, 0x50, 0x4c, 0xbf, 0xaf, 0xe4, 0xdf, 0x3e,
  0x9d, 0xae, 0x2b, 0xbf, 0x2f, 0xaa, 0x5c, 0x3c, 0x41, 0x09, 0x3b, 0xbe,
  0x21, 0x32, 0x0c, 0x3f, 0x7f, 0x5e, 0x30, 0xbf, 0x99, 0x23, 0x8c, 0x3e,
  0xd5, 0x74, 0x06, 0xbf, 0x58, 0xb2, 0xaf, 0xbe, 0x12, 0x8b, 0x0f, 0xc0,
  0xe2, 0x6b, 0xa9, 0x3f, 0xa2, 0xc5, 0x8e, 0x3e, 0xe6, 0x67, 0xea, 0xbe,
  0x8b, 0x91, 0x35, 0xbf, 0x11, 0xa4, 0x9e, 0xbe, 0x75, 0xda, 0xe8, 0x3e,
  0x0c, 0x21, 0x97, 0xbf, 0x6c, 0xda, 0xd8, 0xbd, 0x6c, 0x30, 0x8f, 0x3f,
  0x74, 0xcb, 0x22, 0xbf, 0x50, 0x0d, 0x29, 0x3d, 0x82, 0xf0, 0xb0, 0x3f,
  0x7a, 0x21, 0xbf, 0x3e, 0xdc, 0x98, 0xaa, 0x3d, 0xd6, 0x31, 0x97, 0x3e,
  0x32, 0xbe, 0x6a, 0xbe, 0xe6, 0x25, 0x52, 0x3f, 0xf8, 0xd4, 0x5d, 0xbe,
  0xef, 0x1a, 0x9d, 0xbf, 0x45, 0xb7, 0x81, 0xbe, 0xe6, 0x82, 0x16, 0xbf,
  0x29, 0xd2, 0x21, 0xbe, 0x15, 0x5a, 0x36, 0xbe, 0xd8, 0x32, 0x3e, 0x3f,
  0x19, 0xec, 0xe1, 0x3e, 0x7b, 0x5e, 0x1e, 0x3e, 0x1e, 0x8d, 0x17, 0xbc,
  0x02, 0x79, 0x32, 0xbf, 0xbe, 0xc9, 0xa9, 0xbf, 0xd1, 0x6c, 0x7e, 0xbc,
  0xb8, 0xd1, 0xf9, 0x3b, 0xa8, 0x43, 0x5e, 0xbd, 0x94, 0x19, 0x63, 0xb9,
  0x6f, 0xca, 0xa3, 0xbd, 0x0c, 0x4d, 0xaa, 0xbc, 0x1b, 0x76, 0x91, 0x3c,
  0x5f, 0x3a, 0x1f, 0xbd, 0x3d, 0x4c, 0x91, 0x3d, 0xfd, 0xde, 0xac, 0x3e,
  0x45, 0x5f, 0x22, 0x3b, 0x26, 0xb9, 0x8e, 0xbe, 0x9f, 0x3f, 0x45, 0x3e,
  0x5f, 0xcd, 0xd9, 0x3c, 0x4e, 0xb4, 0x53, 0x3f, 0x10, 0x88, 0x1a, 0x3f,
  0x18, 0x6d, 0xde, 0x3e, 0xec, 0x82, 0xa7, 0x3e, 0xa0, 0x19, 0xf3, 0xbe,
  0x58, 0x38, 0x84, 0x3e, 0xc9, 0x07, 0x45, 0x3e, 0x99, 0x1f, 0x90, 0x3e,
  0x27, 0xce, 0x88, 0x3e, 0xab, 0x4f, 0x64, 0x3e, 0x61, 0x7f, 0xa4, 0x3f,
  0x3f, 0x32, 0xc9, 0x39, 0xae, 0x54, 0xf1, 0x3e, 0xe5, 0xf0, 0x58, 0xbe,
  0x78, 0x98, 0xc2, 0x3e, 0x72, 0xa9, 0xe3, 0x3e, 0x73, 0x4d, 0x8b, 0x3e,
  0x1a, 0xf7, 0x48, 0x3f, 0xb0, 0xa2, 0xc8, 0xbe, 0xed, 0x1d, 0xba, 0xbe,
  0x45, 0x03, 0x59, 0x3e, 0x9b, 0xff, 0xce, 0x3e, 0xf9, 0xe2, 0xf0, 0x3d,
  0xf7, 0xf0, 0x07, 0x3f, 0x0e, 0x69, 0x82, 0xbe, 0x45, 0xfe, 0x0f, 0xbf,
  0x74, 0xb0, 0x01, 0xbd, 0x25, 0x97, 0xbc, 0xbc, 0x64, 0x60, 0x70, 0x3d,
  0xf4, 0x22, 0x83, 0xbb, 0x00, 0x00, 0x00, 0x00, 0x00, 0x00, 0x00, 0x00,
  0x00, 0x00, 0x00, 0x00,
}; 

const unsigned int preeclampsia_risk_model_tflite_len = 400;

#endif // PREECLAMPSIA_RISK_MODEL_TFLITE_H
